unsigned char sine_model_tflite[] = {
  0x1c, 0x00, 0x00, 0x00, 0x54, 0x46, 0x4c, 0x33, 0x14, 0x00, 0x20, 0x00,
  0x1c, 0x00, 0x18, 0x00, 0x14, 0x00, 0x10, 0x00, 0x0c, 0x00, 0x00, 0x00,
  0x08, 0x00, 0x04, 0x00, 0x14, 0x00, 0x00, 0x00, 0x1c, 0x00, 0x00, 0x00,
  0x98, 0x00, 0x00, 0x00, 0xf0, 0x00, 0x00, 0x00, 0x14, 0x07, 0x00, 0x00,
  0x24, 0x07, 0x00, 0x00, 0x08, 0x0c, 0x00, 0x00, 0x03, 0x00, 0x00, 0x00,
  0x01, 0x00, 0x00, 0x00, 0x10, 0x00, 0x00, 0x00, 0x00, 0x00, 0x0a, 0x00,
  0x10, 0x00, 0x0c, 0x00, 0x08, 0x00, 0x04, 0x00, 0x0a, 0x00, 0x00, 0x00,
  0x0c, 0x00, 0x00, 0x00, 0x1c, 0x00, 0x00, 0x00, 0x3c, 0x00, 0x00, 0x00,
  0x0f, 0x00, 0x00, 0x00, 0x73, 0x65, 0x72, 0x76, 0x69, 0x6e, 0x67, 0x5f,
  0x64, 0x65, 0x66, 0x61, 0x75, 0x6c, 0x74, 0x00, 0x01, 0x00, 0x00, 0x00,
  0x04, 0x00, 0x00, 0x00, 0x90, 0xff, 0xff, 0xff, 0x09, 0x00, 0x00, 0x00,
  0x04, 0x00, 0x00, 0x00, 0x08, 0x00, 0x00, 0x00, 0x6f, 0x75, 0x74, 0x70,
  0x75, 0x74, 0x5f, 0x30, 0x00, 0x00, 0x00, 0x00, 0x01, 0x00, 0x00, 0x00,
  0x04, 0x00, 0x00, 0x00, 0xba, 0xf9, 0xff, 0xff, 0x04, 0x00, 0x00, 0x00,
  0x0c, 0x00, 0x00, 0x00, 0x6b, 0x65, 0x72, 0x61, 0x73, 0x5f, 0x74, 0x65,
  0x6e, 0x73, 0x6f, 0x72, 0x00, 0x00, 0x00, 0x00, 0x02, 0x00, 0x00, 0x00,
  0x34, 0x00, 0x00, 0x00, 0x04, 0x00, 0x00, 0x00, 0xdc, 0xff, 0xff, 0xff,
  0x0c, 0x00, 0x00, 0x00, 0x04, 0x00, 0x00, 0x00, 0x13, 0x00, 0x00, 0x00,
  0x43, 0x4f, 0x4e, 0x56, 0x45, 0x52, 0x53, 0x49, 0x4f, 0x4e, 0x5f, 0x4d,
  0x45, 0x54, 0x41, 0x44, 0x41, 0x54, 0x41, 0x00, 0x08, 0x00, 0x0c, 0x00,
  0x08, 0x00, 0x04, 0x00, 0x08, 0x00, 0x00, 0x00, 0x0b, 0x00, 0x00, 0x00,
  0x04, 0x00, 0x00, 0x00, 0x13, 0x00, 0x00, 0x00, 0x6d, 0x69, 0x6e, 0x5f,
  0x72, 0x75, 0x6e, 0x74, 0x69, 0x6d, 0x65, 0x5f, 0x76, 0x65, 0x72, 0x73,
  0x69, 0x6f, 0x6e, 0x00, 0x0d, 0x00, 0x00, 0x00, 0x20, 0x06, 0x00, 0x00,
  0x18, 0x06, 0x00, 0x00, 0xc8, 0x05, 0x00, 0x00, 0xac, 0x05, 0x00, 0x00,
  0x5c, 0x05, 0x00, 0x00, 0x4c, 0x01, 0x00, 0x00, 0xfc, 0x00, 0x00, 0x00,
  0xac, 0x00, 0x00, 0x00, 0xa4, 0x00, 0x00, 0x00, 0x9c, 0x00, 0x00, 0x00,
  0x94, 0x00, 0x00, 0x00, 0x74, 0x00, 0x00, 0x00, 0x04, 0x00, 0x00, 0x00,
  0x6a, 0xfa, 0xff, 0xff, 0x04, 0x00, 0x00, 0x00, 0x60, 0x00, 0x00, 0x00,
  0x10, 0x00, 0x00, 0x00, 0x00, 0x00, 0x00, 0x00, 0x08, 0x00, 0x0e, 0x00,
  0x08, 0x00, 0x04, 0x00, 0x08, 0x00, 0x00, 0x00, 0x10, 0x00, 0x00, 0x00,
  0x24, 0x00, 0x00, 0x00, 0x00, 0x00, 0x06, 0x00, 0x08, 0x00, 0x04, 0x00,
  0x06, 0x00, 0x00, 0x00, 0x04, 0x00, 0x00, 0x00, 0x00, 0x00, 0x00, 0x00,
  0x0c, 0x00, 0x18, 0x00, 0x14, 0x00, 0x10, 0x00, 0x0c, 0x00, 0x04, 0x00,
  0x0c, 0x00, 0x00, 0x00, 0x07, 0xfb, 0xf7, 0xe3, 0x6d, 0xe7, 0x01, 0x38,
  0x02, 0x00, 0x00, 0x00, 0x02, 0x00, 0x00, 0x00, 0x04, 0x00, 0x00, 0x00,
  0x06, 0x00, 0x00, 0x00, 0x32, 0x2e, 0x32, 0x30, 0x2e, 0x30, 0x00, 0x00,
  0xd6, 0xfa, 0xff, 0xff, 0x04, 0x00, 0x00, 0x00, 0x10, 0x00, 0x00, 0x00,
  0x31, 0x2e, 0x35, 0x2e, 0x30, 0x00, 0x00, 0x00, 0x00, 0x00, 0x00, 0x00,
  0x00, 0x00, 0x00, 0x00, 0xd4, 0xf5, 0xff, 0xff, 0xd8, 0xf5, 0xff, 0xff,
  0xdc, 0xf5, 0xff, 0xff, 0xfe, 0xfa, 0xff, 0xff, 0x04, 0x00, 0x00, 0x00,
  0x40, 0x00, 0x00, 0x00, 0xc9, 0x21, 0xc5, 0xbe, 0xe1, 0x18, 0xab, 0xbe,
  0x35, 0x1c, 0xec, 0x3e, 0x02, 0xc9, 0x81, 0x3e, 0xfc, 0xb9, 0xd7, 0xbe,
  0x38, 0x79, 0x9b, 0xbe, 0xf6, 0xc2, 0x90, 0xbe, 0x8f, 0x8d, 0x89, 0x3e,
  0xab, 0xa9, 0x85, 0x3e, 0x57, 0x08, 0x09, 0x3e, 0xfd, 0xa0, 0xa8, 0xbe,
  0x00, 0x1f, 0x39, 0xbe, 0x03, 0xbc, 0xc2, 0x3e, 0x49, 0xed, 0xe5, 0xbe,
  0xdc, 0x21, 0x62, 0x3e, 0xab, 0x9c, 0x6f, 0x3d, 0x4a, 0xfb, 0xff, 0xff,
  0x04, 0x00, 0x00, 0x00, 0x40, 0x00, 0x00, 0x00, 0xf5, 0x08, 0xbd, 0x3e,
  0x44, 0xed, 0x68, 0xbe, 0xf6, 0xce, 0x8a, 0x3d, 0xdb, 0x4d, 0xf4, 0xbe,
  0x4e, 0xe8, 0x7b, 0xbe, 0xed, 0xc2, 0x8f, 0xbe, 0x41, 0x90, 0xc5, 0xbe,
  0xd6, 0x38, 0xbe, 0xbe, 0x4d, 0xc0, 0x95, 0x3e, 0x98, 0xd9, 0xf4, 0xbe,
  0xd9, 0x53, 0xe7, 0x3e, 0x36, 0x47, 0xa9, 0x3e, 0x19, 0xb8, 0x7b, 0x3d,
  0x83, 0x80, 0x72, 0x3e, 0x1f, 0x4d, 0xeb, 0x3e, 0x95, 0xdf, 0x85, 0x3e,
  0x96, 0xfb, 0xff, 0xff, 0x04, 0x00, 0x00, 0x00, 0x00, 0x04, 0x00, 0x00,
  0x37, 0x82, 0x10, 0x3f, 0x3b, 0x51, 0x0f, 0xbe, 0x57, 0xf5, 0xa2, 0xbe,
  0x10, 0xd6, 0xaf, 0xbd, 0x14, 0xb6, 0xca, 0x3d, 0x88, 0x5d, 0xc5, 0xbe,
  0x81, 0x5a, 0x64, 0x3e, 0xf9, 0xf6, 0x9f, 0x3e, 0x41, 0xd1, 0xb8, 0x3e,
  0xd2, 0x18, 0xc4, 0x3e, 0x7c, 0xbf, 0x02, 0x3f, 0x27, 0x98, 0x3b, 0x3e,
  0x7d, 0xa3, 0x85, 0xbe, 0x3b, 0x6c, 0x51, 0x3f, 0x94, 0x65, 0xd1, 0xbe,
  0xfe, 0xaf, 0x74, 0x3e, 0xd6, 0x2e, 0x05, 0xbd, 0xa2, 0xb1, 0x38, 0x3e,
  0x09, 0x8f, 0x16, 0xbe, 0x5d, 0x00, 0xaa, 0xbe, 0xad, 0x11, 0x0e, 0x3f,
  0x9d, 0x38, 0xaf, 0x3e, 0xfc, 0xbc, 0xbe, 0x3e, 0xae, 0x5c, 0x73, 0x3d,
  0xce, 0xeb, 0xb7, 0x3e, 0xf7, 0x2e, 0x69, 0x3e, 0xd2, 0xfa, 0x15, 0xbd,
  0x64, 0xa0, 0x4c, 0x3e, 0x04, 0x81, 0x47, 0x3d, 0x2e, 0xbf, 0x3e, 0xbf,
  0x0b, 0xaa, 0x0e, 0x3d, 0x95, 0xe0, 0x9e, 0x3d, 0x14, 0xf8, 0x00, 0xbe,
  0x5a, 0x09, 0x38, 0x3e, 0xc0, 0x65, 0xcf, 0xbd, 0xa0, 0x1e, 0xf2, 0xbd,
  0xc2, 0xc8, 0x40, 0xbe, 0x82, 0x9f, 0x90, 0xbe, 0xe0, 0xcc, 0x7c, 0xbd,
  0x90, 0xc4, 0x66, 0xbd, 0x14, 0x4c, 0xda, 0xbe, 0x8a, 0x23, 0x92, 0xbe,
  0xf0, 0x41, 0x33, 0x3d, 0xfc, 0xbe, 0x92, 0xbd, 0x92, 0x36, 0x0b, 0x3e,
  0xd8, 0xa4, 0xd7, 0xbd, 0xc8, 0x8d, 0x5e, 0xbe, 0x06, 0xad, 0x56, 0xbe,
  0x5f, 0xb0, 0xd2, 0x3d, 0x7d, 0xfd, 0x3b, 0xbf, 0x4d, 0x57, 0x41, 0xbe,
  0xc8, 0xec, 0xd5, 0x3d, 0xa8, 0x28, 0x29, 0xbf, 0xa8, 0x4f, 0x1d, 0xbe,
  0x78, 0x59, 0x6e, 0x3e, 0x18, 0x8c, 0x18, 0x3c, 0xb7, 0x1b, 0x00, 0x3e,
  0x18, 0x45, 0x12, 0x3e, 0x5a, 0xd2, 0x52, 0xbe, 0x87, 0x32, 0x65, 0xbe,
  0xdc, 0x80, 0x2b, 0x3e, 0x6c, 0x25, 0x69, 0xc0, 0x4e, 0xad, 0x97, 0x3d,
  0x5c, 0x6d, 0x59, 0xbe, 0x50, 0x18, 0x39, 0x3e, 0xcb, 0xad, 0x28, 0xbf,
  0x5e, 0x4c, 0x04, 0x3e, 0xe3, 0x00, 0x9b, 0xbd, 0x8e, 0x10, 0x83, 0xbe,
  0x70, 0x83, 0x19, 0x3d, 0x22, 0xc1, 0x20, 0x3b, 0x95, 0x4c, 0x4d, 0x3e,
  0x7f, 0xbe, 0xb2, 0xbe, 0xb5, 0x4b, 0xab, 0x3e, 0xba, 0x4b, 0x2a, 0xbf,
  0x20, 0xfb, 0xcf, 0xbe, 0x85, 0x5a, 0xff, 0x3c, 0xaf, 0x77, 0x28, 0xbe,
  0xf4, 0xb0, 0x4b, 0xbe, 0x36, 0x5d, 0x73, 0x3e, 0x28, 0x90, 0x96, 0xbe,
  0x21, 0xd9, 0xa3, 0xbe, 0x4f, 0x17, 0x8b, 0x3e, 0xb1, 0x95, 0x91, 0xbe,
  0x9f, 0xd0, 0x82, 0x3e, 0x9a, 0x43, 0x74, 0x3e, 0x29, 0x3e, 0x56, 0x3d,
  0x46, 0x49, 0xf6, 0x3d, 0x9e, 0x5e, 0xad, 0x3c, 0xba, 0x0f, 0x77, 0xbd,
  0x15, 0xc5, 0xd4, 0xbe, 0x9e, 0x32, 0x50, 0x3d, 0xa7, 0x3e, 0x6a, 0x3d,
  0xee, 0xac, 0x20, 0xbe, 0xc6, 0xce, 0xd5, 0x3d, 0x71, 0xec, 0xc4, 0xbe,
  0x84, 0xcf, 0xef, 0x3d, 0xb5, 0xd0, 0xbb, 0x3e, 0x63, 0xef, 0x65, 0xbf,
  0xb6, 0xc5, 0x01, 0xbc, 0xc6, 0xe8, 0x4a, 0x3e, 0x02, 0x06, 0x88, 0x3e,
  0xf8, 0x5c, 0xda, 0xbc, 0x16, 0x87, 0x1a, 0x3e, 0x7d, 0xdd, 0xb9, 0x3e,
  0x82, 0x93, 0x13, 0x3e, 0xaf, 0x8c, 0x56, 0xbe, 0x3c, 0xc6, 0x98, 0xbe,
  0x6e, 0x05, 0x3d, 0xbf, 0x7a, 0x16, 0x14, 0xbe, 0x98, 0xd8, 0xaf, 0xbe,
  0x06, 0x80, 0x9e, 0xbe, 0xca, 0xd0, 0xff, 0xbe, 0x08, 0x57, 0x28, 0x3e,
  0xb8, 0x53, 0x06, 0x3f, 0xab, 0x9f, 0x08, 0xbd, 0xf2, 0x43, 0x16, 0xbe,
  0x30, 0xc8, 0xae, 0xbe, 0xdc, 0x35, 0x7b, 0x3e, 0xd4, 0xa9, 0x91, 0xbe,
  0xaf, 0x90, 0xbf, 0x3e, 0x90, 0xee, 0x78, 0xbe, 0xb1, 0x44, 0x85, 0xbe,
  0x6c, 0x76, 0x76, 0xbd, 0x79, 0x7b, 0xcf, 0x3e, 0x83, 0x8e, 0x4d, 0xbf,
  0x71, 0x90, 0xa8, 0x3e, 0xfb, 0x60, 0x78, 0xbe, 0x42, 0x15, 0x48, 0xbe,
  0x04, 0xeb, 0x8d, 0x3d, 0x78, 0xab, 0xd5, 0x3e, 0xe4, 0x94, 0x2f, 0x3e,
  0xdc, 0x77, 0x0a, 0x3e, 0x35, 0x98, 0x6e, 0xbe, 0x94, 0xc7, 0x3b, 0xbf,
  0xf0, 0xe6, 0xb5, 0xbe, 0x18, 0x11, 0x8c, 0x3e, 0x21, 0x7d, 0x4d, 0xbe,
  0xca, 0x0b, 0xe6, 0xbd, 0xf9, 0x2f, 0x24, 0xbe, 0xc1, 0x28, 0x90, 0xbd,
  0xca, 0x65, 0x20, 0xbf, 0x24, 0x89, 0xab, 0xbd, 0xa3, 0xab, 0xcc, 0x3e,
  0x4d, 0x33, 0xb4, 0xbe, 0x93, 0x22, 0x46, 0x3e, 0x10, 0x11, 0x89, 0x3e,
  0xb7, 0x8b, 0x89, 0x3d, 0x26, 0xfc, 0x12, 0xbf, 0xda, 0xc2, 0x76, 0xbe,
  0x7f, 0xa0, 0x88, 0x3e, 0x6e, 0x98, 0x9a, 0x3e, 0x68, 0x45, 0xcd, 0x3d,
  0x56, 0x1a, 0xb8, 0xbe, 0xe0, 0xc5, 0x2a, 0xbf, 0x3f, 0x92, 0xfc, 0xbe,
  0x3b, 0xfa, 0x06, 0xbe, 0xb7, 0x25, 0xe6, 0xbe, 0xe2, 0x02, 0x99, 0x37,
  0x1f, 0xe3, 0x39, 0x3e, 0x46, 0x53, 0xad, 0x3d, 0x0a, 0xdb, 0x82, 0xbe,
  0xae, 0xcb, 0x09, 0xbf, 0x38, 0xb6, 0x8c, 0xbd, 0xcc, 0x47, 0xee, 0x3d,
  0xb2, 0x67, 0x3b, 0x3e, 0xcc, 0x44, 0xab, 0xbe, 0xd4, 0xbe, 0xaf, 0x3d,
  0x4f, 0x8b, 0x31, 0x3e, 0xf0, 0xfc, 0x95, 0xbc, 0x57, 0x78, 0x0d, 0x3f,
  0xec, 0xc8, 0x50, 0x3e, 0x50, 0xc3, 0xb3, 0xbe, 0x90, 0x97, 0x54, 0x3f,
  0x2a, 0x31, 0x8e, 0x3d, 0xae, 0x4c, 0x7f, 0x3c, 0x7a, 0x16, 0xb9, 0x3d,
  0x47, 0xf9, 0x06, 0xbe, 0x6f, 0xea, 0x37, 0x3e, 0xc3, 0xef, 0x93, 0x3e,
  0xfa, 0xff, 0x93, 0xbe, 0x89, 0xca, 0xa1, 0xbe, 0xc5, 0x7d, 0x07, 0xbf,
  0x9f, 0x53, 0x2d, 0xbe, 0xdf, 0x1b, 0xe9, 0xbd, 0x83, 0x2b, 0xc4, 0x3e,
  0x6a, 0xa6, 0x8d, 0x3e, 0xe5, 0x5d, 0x32, 0x3e, 0x39, 0xee, 0x07, 0x3e,
  0x60, 0x0b, 0x11, 0x3e, 0xa2, 0xd5, 0x8c, 0x3e, 0x24, 0x69, 0x4a, 0xbe,
  0x6f, 0x68, 0x43, 0x3e, 0x9e, 0xb3, 0x1a, 0xbf, 0xce, 0xdd, 0xf4, 0x3e,
  0x16, 0xb7, 0xa6, 0x3e, 0x13, 0x2d, 0x0a, 0xbf, 0x1b, 0x44, 0x10, 0xbf,
  0x6c, 0x4c, 0x56, 0xbd, 0x79, 0xe0, 0x72, 0x3c, 0x37, 0x4f, 0x6a, 0xbe,
  0xe7, 0x28, 0x9e, 0x3c, 0x5f, 0xc0, 0x1a, 0xbd, 0x25, 0x5a, 0x7c, 0xbc,
  0xe7, 0x80, 0xa9, 0xbc, 0x81, 0xdf, 0x83, 0x3e, 0x7f, 0x51, 0xb9, 0xbe,
  0x1d, 0xa2, 0x1d, 0xbc, 0x09, 0x3a, 0x99, 0xbd, 0xb7, 0xef, 0x27, 0xbe,
  0xa6, 0xda, 0x79, 0x3e, 0x71, 0x55, 0xca, 0x3c, 0xe1, 0xcc, 0xef, 0xbd,
  0x07, 0x40, 0x32, 0x3e, 0xdc, 0x03, 0x9d, 0xbe, 0x8c, 0x21, 0xd4, 0x3e,
  0x9c, 0x4a, 0x03, 0xbd, 0x35, 0x9e, 0xb3, 0xbe, 0x2f, 0x77, 0xf4, 0xbd,
  0x21, 0x49, 0x01, 0xbe, 0xb4, 0xf7, 0x30, 0x3f, 0x13, 0x62, 0x6f, 0xbf,
  0x5b, 0x2f, 0x95, 0xbe, 0x7d, 0x10, 0x77, 0x3d, 0xc4, 0x24, 0xda, 0x3d,
  0xf9, 0x13, 0x12, 0x3e, 0x5f, 0x0b, 0x30, 0xbf, 0xe3, 0xe7, 0xb7, 0x3e,
  0x27, 0x2b, 0x98, 0x3d, 0xa2, 0xde, 0xec, 0x3d, 0xb6, 0x49, 0xaf, 0x3e,
  0x42, 0x1c, 0x61, 0xbe, 0xcc, 0x82, 0x6e, 0xbe, 0xba, 0x6d, 0x5f, 0x3d,
  0x40, 0xdf, 0x26, 0x3c, 0xb1, 0xad, 0x7b, 0xbe, 0x9f, 0xa4, 0x22, 0xbf,
  0xe2, 0xdd, 0x09, 0x3e, 0xa4, 0x74, 0xf0, 0x3d, 0xf0, 0xce, 0xe4, 0x3c,
  0xe0, 0x2c, 0xfb, 0xbc, 0x50, 0xbc, 0x75, 0xbd, 0x70, 0x26, 0xa4, 0xbd,
  0x0d, 0x2b, 0x08, 0xbe, 0xe9, 0xd0, 0xd6, 0xbe, 0xc8, 0x25, 0x4a, 0xbe,
  0x97, 0x26, 0x6e, 0xbe, 0x43, 0x85, 0x2b, 0x3d, 0x55, 0x63, 0x0c, 0x3e,
  0x0f, 0xd2, 0x9d, 0xbd, 0xb5, 0xdf, 0x9f, 0x3e, 0x0e, 0x7a, 0x8c, 0xbe,
  0xc1, 0x1a, 0x8d, 0x3e, 0xca, 0x27, 0x77, 0xbe, 0x1b, 0xd5, 0xa9, 0xbe,
  0x30, 0x81, 0x1e, 0xbe, 0xa2, 0xff, 0xff, 0xff, 0x04, 0x00, 0x00, 0x00,
  0x40, 0x00, 0x00, 0x00, 0x0d, 0xae, 0xf6, 0xbe, 0x66, 0x71, 0x11, 0x3f,
  0x36, 0x7b, 0x06, 0xbf, 0xbd, 0xc0, 0x16, 0xbe, 0x8b, 0x98, 0x61, 0xbe,
  0xbb, 0x91, 0x0d, 0xbf, 0x7e, 0xad, 0xec, 0x3e, 0xe4, 0x1e, 0x57, 0x3f,
  0x57, 0x6c, 0xa9, 0x3e, 0x57, 0xab, 0x96, 0xbe, 0x6b, 0x79, 0xcd, 0xbe,
  0x87, 0x70, 0xfa, 0xbe, 0x39, 0x54, 0x30, 0xbf, 0x5a, 0x1a, 0xd0, 0xbe,
  0x3b, 0x38, 0x14, 0x3f, 0xaa, 0x46, 0x4b, 0xbe, 0xee, 0xff, 0xff, 0xff,
  0x04, 0x00, 0x00, 0x00, 0x04, 0x00, 0x00, 0x00, 0x7f, 0x09, 0xa0, 0x3d,
  0x00, 0x00, 0x06, 0x00, 0x08, 0x00, 0x04, 0x00, 0x06, 0x00, 0x00, 0x00,
  0x04, 0x00, 0x00, 0x00, 0x40, 0x00, 0x00, 0x00, 0x23, 0xea, 0x53, 0xbd,
  0x3d, 0x6a, 0xa9, 0x3d, 0x00, 0x00, 0x00, 0x00, 0xd9, 0x03, 0xa0, 0x3e,
  0xfa, 0x56, 0x79, 0x3e, 0xd3, 0xf5, 0xcb, 0x3c, 0x1b, 0x33, 0x48, 0xbe,
  0x6f, 0xf8, 0x89, 0x3e, 0x1c, 0x23, 0x93, 0x3e, 0xc3, 0xac, 0x68, 0x3d,
  0x4a, 0xd8, 0xc2, 0xbe, 0xa3, 0x99, 0xac, 0xbd, 0xf5, 0xd9, 0x82, 0x3e,
  0xd3, 0x56, 0x8e, 0x3e, 0xc7, 0xe6, 0x5f, 0xbe, 0x6a, 0x8d, 0x52, 0xbc,
  0x34, 0xfb, 0xff, 0xff, 0x38, 0xfb, 0xff, 0xff, 0x0f, 0x00, 0x00, 0x00,
  0x4d, 0x4c, 0x49, 0x52, 0x20, 0x43, 0x6f, 0x6e, 0x76, 0x65, 0x72, 0x74,
  0x65, 0x64, 0x2e, 0x00, 0x01, 0x00, 0x00, 0x00, 0x14, 0x00, 0x00, 0x00,
  0x00, 0x00, 0x0e, 0x00, 0x18, 0x00, 0x14, 0x00, 0x10, 0x00, 0x0c, 0x00,
  0x08, 0x00, 0x04, 0x00, 0x0e, 0x00, 0x00, 0x00, 0x14, 0x00, 0x00, 0x00,
  0x1c, 0x00, 0x00, 0x00, 0xe8, 0x00, 0x00, 0x00, 0xec, 0x00, 0x00, 0x00,
  0xf0, 0x00, 0x00, 0x00, 0x04, 0x00, 0x00, 0x00, 0x6d, 0x61, 0x69, 0x6e,
  0x00, 0x00, 0x00, 0x00, 0x03, 0x00, 0x00, 0x00, 0x90, 0x00, 0x00, 0x00,
  0x48, 0x00, 0x00, 0x00, 0x04, 0x00, 0x00, 0x00, 0xce, 0xff, 0xff, 0xff,
  0x10, 0x00, 0x00, 0x00, 0x00, 0x00, 0x00, 0x08, 0x0c, 0x00, 0x00, 0x00,
  0x10, 0x00, 0x00, 0x00, 0xb0, 0xfb, 0xff, 0xff, 0x01, 0x00, 0x00, 0x00,
  0x09, 0x00, 0x00, 0x00, 0x03, 0x00, 0x00, 0x00, 0x08, 0x00, 0x00, 0x00,
  0x03, 0x00, 0x00, 0x00, 0x02, 0x00, 0x00, 0x00, 0x00, 0x00, 0x0e, 0x00,
  0x14, 0x00, 0x00, 0x00, 0x10, 0x00, 0x0c, 0x00, 0x0b, 0x00, 0x04, 0x00,
  0x0e, 0x00, 0x00, 0x00, 0x10, 0x00, 0x00, 0x00, 0x00, 0x00, 0x00, 0x08,
  0x10, 0x00, 0x00, 0x00, 0x14, 0x00, 0x00, 0x00, 0xba, 0xff, 0xff, 0xff,
  0x00, 0x00, 0x00, 0x01, 0x01, 0x00, 0x00, 0x00, 0x08, 0x00, 0x00, 0x00,
  0x03, 0x00, 0x00, 0x00, 0x07, 0x00, 0x00, 0x00, 0x04, 0x00, 0x00, 0x00,
  0x01, 0x00, 0x00, 0x00, 0x00, 0x00, 0x0e, 0x00, 0x16, 0x00, 0x00, 0x00,
  0x10, 0x00, 0x0c, 0x00, 0x0b, 0x00, 0x04, 0x00, 0x0e, 0x00, 0x00, 0x00,
  0x18, 0x00, 0x00, 0x00, 0x00, 0x00, 0x00, 0x08, 0x18, 0x00, 0x00, 0x00,
  0x1c, 0x00, 0x00, 0x00, 0x00, 0x00, 0x06, 0x00, 0x08, 0x00, 0x07, 0x00,
  0x06, 0x00, 0x00, 0x00, 0x00, 0x00, 0x00, 0x01, 0x01, 0x00, 0x00, 0x00,
  0x07, 0x00, 0x00, 0x00, 0x03, 0x00, 0x00, 0x00, 0x00, 0x00, 0x00, 0x00,
  0x05, 0x00, 0x00, 0x00, 0x06, 0x00, 0x00, 0x00, 0x01, 0x00, 0x00, 0x00,
  0x09, 0x00, 0x00, 0x00, 0x01, 0x00, 0x00, 0x00, 0x00, 0x00, 0x00, 0x00,
  0x0a, 0x00, 0x00, 0x00, 0x68, 0x03, 0x00, 0x00, 0x14, 0x03, 0x00, 0x00,
  0xc0, 0x02, 0x00, 0x00, 0x80, 0x02, 0x00, 0x00, 0x40, 0x02, 0x00, 0x00,
  0xf4, 0x01, 0x00, 0x00, 0x90, 0x01, 0x00, 0x00, 0xfc, 0x00, 0x00, 0x00,
  0x60, 0x00, 0x00, 0x00, 0x04, 0x00, 0x00, 0x00, 0xd6, 0xfc, 0xff, 0xff,
  0x00, 0x00, 0x00, 0x01, 0x14, 0x00, 0x00, 0x00, 0x1c, 0x00, 0x00, 0x00,
  0x1c, 0x00, 0x00, 0x00, 0x0a, 0x00, 0x00, 0x00, 0x34, 0x00, 0x00, 0x00,
  0x02, 0x00, 0x00, 0x00, 0xff, 0xff, 0xff, 0xff, 0x01, 0x00, 0x00, 0x00,
  0xc0, 0xfc, 0xff, 0xff, 0x1b, 0x00, 0x00, 0x00, 0x53, 0x74, 0x61, 0x74,
  0x65, 0x66, 0x75, 0x6c, 0x50, 0x61, 0x72, 0x74, 0x69, 0x74, 0x69, 0x6f,
  0x6e, 0x65, 0x64, 0x43, 0x61, 0x6c, 0x6c, 0x5f, 0x31, 0x3a, 0x30, 0x00,
  0x02, 0x00, 0x00, 0x00, 0x01, 0x00, 0x00, 0x00, 0x01, 0x00, 0x00, 0x00,
  0x2e, 0xfd, 0xff, 0xff, 0x00, 0x00, 0x00, 0x01, 0x14, 0x00, 0x00, 0x00,
  0x1c, 0x00, 0x00, 0x00, 0x1c, 0x00, 0x00, 0x00, 0x09, 0x00, 0x00, 0x00,
  0x74, 0x00, 0x00, 0x00, 0x02, 0x00, 0x00, 0x00, 0xff, 0xff, 0xff, 0xff,
  0x10, 0x00, 0x00, 0x00, 0x18, 0xfd, 0xff, 0xff, 0x58, 0x00, 0x00, 0x00,
  0x73, 0x65, 0x71, 0x75, 0x65, 0x6e, 0x74, 0x69, 0x61, 0x6c, 0x5f, 0x31,
  0x2f, 0x64, 0x65, 0x6e, 0x73, 0x65, 0x5f, 0x31, 0x5f, 0x32, 0x2f, 0x4d,
  0x61, 0x74, 0x4d, 0x75, 0x6c, 0x3b, 0x73, 0x65, 0x71, 0x75, 0x65, 0x6e,
  0x74, 0x69, 0x61, 0x6c, 0x5f, 0x31, 0x2f, 0x64, 0x65, 0x6e, 0x73, 0x65,
  0x5f, 0x31, 0x5f, 0x32, 0x2f, 0x52, 0x65, 0x6c, 0x75, 0x3b, 0x73, 0x65,
  0x71, 0x75, 0x65, 0x6e, 0x74, 0x69, 0x61, 0x6c, 0x5f, 0x31, 0x2f, 0x64,
  0x65, 0x6e, 0x73, 0x65, 0x5f, 0x31, 0x5f, 0x32, 0x2f, 0x42, 0x69, 0x61,
  0x73, 0x41, 0x64, 0x64, 0x00, 0x00, 0x00, 0x00, 0x02, 0x00, 0x00, 0x00,
  0x01, 0x00, 0x00, 0x00, 0x10, 0x00, 0x00, 0x00, 0xc6, 0xfd, 0xff, 0xff,
  0x00, 0x00, 0x00, 0x01, 0x14, 0x00, 0x00, 0x00, 0x1c, 0x00, 0x00, 0x00,
  0x1c, 0x00, 0x00, 0x00, 0x08, 0x00, 0x00, 0x00, 0x6c, 0x00, 0x00, 0x00,
  0x02, 0x00, 0x00, 0x00, 0xff, 0xff, 0xff, 0xff, 0x10, 0x00, 0x00, 0x00,
  0xb0, 0xfd, 0xff, 0xff, 0x52, 0x00, 0x00, 0x00, 0x73, 0x65, 0x71, 0x75,
  0x65, 0x6e, 0x74, 0x69, 0x61, 0x6c, 0x5f, 0x31, 0x2f, 0x64, 0x65, 0x6e,
  0x73, 0x65, 0x5f, 0x31, 0x2f, 0x4d, 0x61, 0x74, 0x4d, 0x75, 0x6c, 0x3b,
  0x73, 0x65, 0x71, 0x75, 0x65, 0x6e, 0x74, 0x69, 0x61, 0x6c, 0x5f, 0x31,
  0x2f, 0x64, 0x65, 0x6e, 0x73, 0x65, 0x5f, 0x31, 0x2f, 0x52, 0x65, 0x6c,
  0x75, 0x3b, 0x73, 0x65, 0x71, 0x75, 0x65, 0x6e, 0x74, 0x69, 0x61, 0x6c,
  0x5f, 0x31, 0x2f, 0x64, 0x65, 0x6e, 0x73, 0x65, 0x5f, 0x31, 0x2f, 0x42,
  0x69, 0x61, 0x73, 0x41, 0x64, 0x64, 0x00, 0x00, 0x02, 0x00, 0x00, 0x00,
  0x01, 0x00, 0x00, 0x00, 0x10, 0x00, 0x00, 0x00, 0xa6, 0xfe, 0xff, 0xff,
  0x00, 0x00, 0x00, 0x01, 0x10, 0x00, 0x00, 0x00, 0x10, 0x00, 0x00, 0x00,
  0x07, 0x00, 0x00, 0x00, 0x44, 0x00, 0x00, 0x00, 0x30, 0xfe, 0xff, 0xff,
  0x36, 0x00, 0x00, 0x00, 0x73, 0x65, 0x71, 0x75, 0x65, 0x6e, 0x74, 0x69,
  0x61, 0x6c, 0x5f, 0x31, 0x2f, 0x64, 0x65, 0x6e, 0x73, 0x65, 0x5f, 0x31,
  0x2f, 0x52, 0x65, 0x6c, 0x75, 0x3b, 0x73, 0x65, 0x71, 0x75, 0x65, 0x6e,
  0x74, 0x69, 0x61, 0x6c, 0x5f, 0x31, 0x2f, 0x64, 0x65, 0x6e, 0x73, 0x65,
  0x5f, 0x31, 0x2f, 0x42, 0x69, 0x61, 0x73, 0x41, 0x64, 0x64, 0x00, 0x00,
  0x01, 0x00, 0x00, 0x00, 0x10, 0x00, 0x00, 0x00, 0x06, 0xff, 0xff, 0xff,
  0x00, 0x00, 0x00, 0x01, 0x10, 0x00, 0x00, 0x00, 0x10, 0x00, 0x00, 0x00,
  0x06, 0x00, 0x00, 0x00, 0x28, 0x00, 0x00, 0x00, 0x90, 0xfe, 0xff, 0xff,
  0x1b, 0x00, 0x00, 0x00, 0x73, 0x65, 0x71, 0x75, 0x65, 0x6e, 0x74, 0x69,
  0x61, 0x6c, 0x5f, 0x31, 0x2f, 0x64, 0x65, 0x6e, 0x73, 0x65, 0x5f, 0x31,
  0x2f, 0x4d, 0x61, 0x74, 0x4d, 0x75, 0x6c, 0x00, 0x02, 0x00, 0x00, 0x00,
  0x10, 0x00, 0x00, 0x00, 0x01, 0x00, 0x00, 0x00, 0x4e, 0xff, 0xff, 0xff,
  0x00, 0x00, 0x00, 0x01, 0x10, 0x00, 0x00, 0x00, 0x10, 0x00, 0x00, 0x00,
  0x05, 0x00, 0x00, 0x00, 0x1c, 0x00, 0x00, 0x00, 0xd8, 0xfe, 0xff, 0xff,
  0x0f, 0x00, 0x00, 0x00, 0x61, 0x72, 0x69, 0x74, 0x68, 0x2e, 0x63, 0x6f,
  0x6e, 0x73, 0x74, 0x61, 0x6e, 0x74, 0x33, 0x00, 0x02, 0x00, 0x00, 0x00,
  0x10, 0x00, 0x00, 0x00, 0x10, 0x00, 0x00, 0x00, 0x8a, 0xff, 0xff, 0xff,
  0x00, 0x00, 0x00, 0x01, 0x10, 0x00, 0x00, 0x00, 0x10, 0x00, 0x00, 0x00,
  0x04, 0x00, 0x00, 0x00, 0x1c, 0x00, 0x00, 0x00, 0x14, 0xff, 0xff, 0xff,
  0x0f, 0x00, 0x00, 0x00, 0x61, 0x72, 0x69, 0x74, 0x68, 0x2e, 0x63, 0x6f,
  0x6e, 0x73, 0x74, 0x61, 0x6e, 0x74, 0x32, 0x00, 0x02, 0x00, 0x00, 0x00,
  0x01, 0x00, 0x00, 0x00, 0x10, 0x00, 0x00, 0x00, 0xc6, 0xff, 0xff, 0xff,
  0x00, 0x00, 0x00, 0x01, 0x10, 0x00, 0x00, 0x00, 0x10, 0x00, 0x00, 0x00,
  0x03, 0x00, 0x00, 0x00, 0x1c, 0x00, 0x00, 0x00, 0x50, 0xff, 0xff, 0xff,
  0x0f, 0x00, 0x00, 0x00, 0x61, 0x72, 0x69, 0x74, 0x68, 0x2e, 0x63, 0x6f,
  0x6e, 0x73, 0x74, 0x61, 0x6e, 0x74, 0x31, 0x00, 0x01, 0x00, 0x00, 0x00,
  0x01, 0x00, 0x00, 0x00, 0x00, 0x00, 0x16, 0x00, 0x18, 0x00, 0x14, 0x00,
  0x00, 0x00, 0x10, 0x00, 0x0c, 0x00, 0x08, 0x00, 0x00, 0x00, 0x00, 0x00,
  0x00, 0x00, 0x07, 0x00, 0x16, 0x00, 0x00, 0x00, 0x00, 0x00, 0x00, 0x01,
  0x10, 0x00, 0x00, 0x00, 0x10, 0x00, 0x00, 0x00, 0x02, 0x00, 0x00, 0x00,
  0x1c, 0x00, 0x00, 0x00, 0xa0, 0xff, 0xff, 0xff, 0x0e, 0x00, 0x00, 0x00,
  0x61, 0x72, 0x69, 0x74, 0x68, 0x2e, 0x63, 0x6f, 0x6e, 0x73, 0x74, 0x61,
  0x6e, 0x74, 0x00, 0x00, 0x01, 0x00, 0x00, 0x00, 0x10, 0x00, 0x00, 0x00,
  0x00, 0x00, 0x16, 0x00, 0x1c, 0x00, 0x18, 0x00, 0x00, 0x00, 0x14, 0x00,
  0x10, 0x00, 0x0c, 0x00, 0x00, 0x00, 0x00, 0x00, 0x08, 0x00, 0x07, 0x00,
  0x16, 0x00, 0x00, 0x00, 0x00, 0x00, 0x00, 0x01, 0x14, 0x00, 0x00, 0x00,
  0x20, 0x00, 0x00, 0x00, 0x20, 0x00, 0x00, 0x00, 0x01, 0x00, 0x00, 0x00,
  0x3c, 0x00, 0x00, 0x00, 0x02, 0x00, 0x00, 0x00, 0xff, 0xff, 0xff, 0xff,
  0x01, 0x00, 0x00, 0x00, 0x04, 0x00, 0x04, 0x00, 0x04, 0x00, 0x00, 0x00,
  0x1e, 0x00, 0x00, 0x00, 0x73, 0x65, 0x72, 0x76, 0x69, 0x6e, 0x67, 0x5f,
  0x64, 0x65, 0x66, 0x61, 0x75, 0x6c, 0x74, 0x5f, 0x6b, 0x65, 0x72, 0x61,
  0x73, 0x5f, 0x74, 0x65, 0x6e, 0x73, 0x6f, 0x72, 0x3a, 0x30, 0x00, 0x00,
  0x02, 0x00, 0x00, 0x00, 0x01, 0x00, 0x00, 0x00, 0x01, 0x00, 0x00, 0x00,
  0x01, 0x00, 0x00, 0x00, 0x10, 0x00, 0x00, 0x00, 0x0c, 0x00, 0x0c, 0x00,
  0x0b, 0x00, 0x00, 0x00, 0x00, 0x00, 0x04, 0x00, 0x0c, 0x00, 0x00, 0x00,
  0x09, 0x00, 0x00, 0x00, 0x00, 0x00, 0x00, 0x09
};
unsigned int sine_model_tflite_len = 3164;
